const unsigned char model[] = {
  0x1c, 0x00, 0x00, 0x00, 0x54, 0x46, 0x4c, 0x33, 0x14, 0x00, 0x20, 0x00,
  0x1c, 0x00, 0x18, 0x00, 0x14, 0x00, 0x10, 0x00, 0x0c, 0x00, 0x00, 0x00,
  0x08, 0x00, 0x04, 0x00, 0x14, 0x00, 0x00, 0x00, 0x1c, 0x00, 0x00, 0x00,
  0x98, 0x00, 0x00, 0x00, 0xf0, 0x00, 0x00, 0x00, 0xe8, 0x05, 0x00, 0x00,
  0xf8, 0x05, 0x00, 0x00, 0x00, 0x0c, 0x00, 0x00, 0x03, 0x00, 0x00, 0x00,
  0x01, 0x00, 0x00, 0x00, 0x10, 0x00, 0x00, 0x00, 0x00, 0x00, 0x0a, 0x00,
  0x10, 0x00, 0x0c, 0x00, 0x08, 0x00, 0x04, 0x00, 0x0a, 0x00, 0x00, 0x00,
  0x0c, 0x00, 0x00, 0x00, 0x1c, 0x00, 0x00, 0x00, 0x3c, 0x00, 0x00, 0x00,
  0x0f, 0x00, 0x00, 0x00, 0x73, 0x65, 0x72, 0x76, 0x69, 0x6e, 0x67, 0x5f,
  0x64, 0x65, 0x66, 0x61, 0x75, 0x6c, 0x74, 0x00, 0x01, 0x00, 0x00, 0x00,
  0x04, 0x00, 0x00, 0x00, 0x90, 0xff, 0xff, 0xff, 0x0a, 0x00, 0x00, 0x00,
  0x04, 0x00, 0x00, 0x00, 0x08, 0x00, 0x00, 0x00, 0x64, 0x65, 0x6e, 0x73,
  0x65, 0x5f, 0x33, 0x32, 0x00, 0x00, 0x00, 0x00, 0x01, 0x00, 0x00, 0x00,
  0x04, 0x00, 0x00, 0x00, 0xfe, 0xf9, 0xff, 0xff, 0x04, 0x00, 0x00, 0x00,
  0x0e, 0x00, 0x00, 0x00, 0x64, 0x65, 0x6e, 0x73, 0x65, 0x5f, 0x33, 0x30,
  0x5f, 0x69, 0x6e, 0x70, 0x75, 0x74, 0x00, 0x00, 0x02, 0x00, 0x00, 0x00,
  0x34, 0x00, 0x00, 0x00, 0x04, 0x00, 0x00, 0x00, 0xdc, 0xff, 0xff, 0xff,
  0x0d, 0x00, 0x00, 0x00, 0x04, 0x00, 0x00, 0x00, 0x13, 0x00, 0x00, 0x00,
  0x43, 0x4f, 0x4e, 0x56, 0x45, 0x52, 0x53, 0x49, 0x4f, 0x4e, 0x5f, 0x4d,
  0x45, 0x54, 0x41, 0x44, 0x41, 0x54, 0x41, 0x00, 0x08, 0x00, 0x0c, 0x00,
  0x08, 0x00, 0x04, 0x00, 0x08, 0x00, 0x00, 0x00, 0x0c, 0x00, 0x00, 0x00,
  0x04, 0x00, 0x00, 0x00, 0x13, 0x00, 0x00, 0x00, 0x6d, 0x69, 0x6e, 0x5f,
  0x72, 0x75, 0x6e, 0x74, 0x69, 0x6d, 0x65, 0x5f, 0x76, 0x65, 0x72, 0x73,
  0x69, 0x6f, 0x6e, 0x00, 0x0e, 0x00, 0x00, 0x00, 0xf4, 0x04, 0x00, 0x00,
  0xec, 0x04, 0x00, 0x00, 0xa4, 0x04, 0x00, 0x00, 0x80, 0x04, 0x00, 0x00,
  0x50, 0x04, 0x00, 0x00, 0x80, 0x02, 0x00, 0x00, 0xd0, 0x01, 0x00, 0x00,
  0xa8, 0x00, 0x00, 0x00, 0xa0, 0x00, 0x00, 0x00, 0x98, 0x00, 0x00, 0x00,
  0x90, 0x00, 0x00, 0x00, 0x88, 0x00, 0x00, 0x00, 0x68, 0x00, 0x00, 0x00,
  0x04, 0x00, 0x00, 0x00, 0xb2, 0xfa, 0xff, 0xff, 0x04, 0x00, 0x00, 0x00,
  0x54, 0x00, 0x00, 0x00, 0x0c, 0x00, 0x00, 0x00, 0x08, 0x00, 0x0e, 0x00,
  0x08, 0x00, 0x04, 0x00, 0x08, 0x00, 0x00, 0x00, 0x10, 0x00, 0x00, 0x00,
  0x24, 0x00, 0x00, 0x00, 0x00, 0x00, 0x06, 0x00, 0x08, 0x00, 0x04, 0x00,
  0x06, 0x00, 0x00, 0x00, 0x04, 0x00, 0x00, 0x00, 0x00, 0x00, 0x00, 0x00,
  0x00, 0x00, 0x0a, 0x00, 0x10, 0x00, 0x0c, 0x00, 0x08, 0x00, 0x04, 0x00,
  0x0a, 0x00, 0x00, 0x00, 0x02, 0x00, 0x00, 0x00, 0x02, 0x00, 0x00, 0x00,
  0x04, 0x00, 0x00, 0x00, 0x06, 0x00, 0x00, 0x00, 0x32, 0x2e, 0x31, 0x32,
  0x2e, 0x30, 0x00, 0x00, 0x12, 0xfb, 0xff, 0xff, 0x04, 0x00, 0x00, 0x00,
  0x10, 0x00, 0x00, 0x00, 0x31, 0x2e, 0x35, 0x2e, 0x30, 0x00, 0x00, 0x00,
  0x00, 0x00, 0x00, 0x00, 0x00, 0x00, 0x00, 0x00, 0xd8, 0xf5, 0xff, 0xff,
  0xdc, 0xf5, 0xff, 0xff, 0xe0, 0xf5, 0xff, 0xff, 0xe4, 0xf5, 0xff, 0xff,
  0x3e, 0xfb, 0xff, 0xff, 0x04, 0x00, 0x00, 0x00, 0x18, 0x01, 0x00, 0x00,
  0x72, 0x72, 0xdb, 0x3e, 0x71, 0x37, 0xe7, 0x3e, 0x3f, 0xf4, 0xa4, 0xbf,
  0x55, 0x27, 0xb5, 0xc0, 0x9b, 0xe3, 0x7d, 0xbe, 0x44, 0xe4, 0xdf, 0x3e,
  0x07, 0xec, 0x7d, 0x3f, 0x6c, 0x69, 0xa9, 0xbe, 0x2e, 0xfc, 0x2b, 0xc1,
  0x9e, 0xe9, 0x77, 0xbd, 0x09, 0x8e, 0x3d, 0x3e, 0xb2, 0x6d, 0x42, 0xbe,
  0x76, 0x4c, 0x0c, 0x3e, 0xdc, 0x45, 0xaa, 0xc0, 0x14, 0xa6, 0xb6, 0x3a,
  0x3d, 0x6b, 0x0a, 0x3e, 0x65, 0xad, 0xfa, 0xbe, 0x1d, 0x64, 0x01, 0xc0,
  0xe2, 0x2c, 0x29, 0xc0, 0xd8, 0x20, 0x91, 0xbe, 0x58, 0x4d, 0x0c, 0xbd,
  0x92, 0x5a, 0x47, 0xbf, 0x44, 0x6a, 0x8d, 0xbf, 0x8d, 0x49, 0x59, 0xc0,
  0x70, 0xdc, 0xb1, 0xbd, 0x6b, 0x81, 0xe2, 0xbe, 0x3d, 0x3a, 0xaf, 0xbe,
  0x23, 0x01, 0xdb, 0xbe, 0x3f, 0x43, 0x47, 0xc0, 0xcd, 0x04, 0x99, 0xbe,
  0x38, 0x08, 0xe7, 0xbe, 0xfb, 0x14, 0xf8, 0xbf, 0xf4, 0xb4, 0x18, 0xc1,
  0xc0, 0xca, 0x63, 0xbe, 0xbc, 0xa5, 0x18, 0xbf, 0x77, 0x9a, 0xc7, 0xbd,
  0x1e, 0xa7, 0x80, 0xbd, 0x0e, 0x9c, 0x2c, 0xc0, 0xfc, 0x59, 0x7d, 0xbf,
  0x42, 0xdc, 0x50, 0xbf, 0x77, 0x4a, 0x0b, 0xbf, 0xe7, 0x27, 0xef, 0xbf,
  0xc6, 0x68, 0x97, 0xbf, 0x04, 0xd0, 0xbf, 0xbe, 0x11, 0xb5, 0x5c, 0xbf,
  0xbd, 0xf6, 0xae, 0xbe, 0xbe, 0xf7, 0x33, 0xc1, 0x2f, 0xcd, 0xa3, 0xbf,
  0x4b, 0xc6, 0x62, 0xbf, 0x9e, 0xea, 0x3e, 0xbd, 0x55, 0x41, 0xac, 0xbe,
  0xc2, 0xed, 0x3d, 0xc0, 0xa7, 0x24, 0xe7, 0xbd, 0x82, 0x68, 0x3f, 0x3f,
  0x2a, 0xec, 0x02, 0xc0, 0x3a, 0x75, 0x32, 0x3e, 0x5c, 0x45, 0x51, 0xc0,
  0x1e, 0xd0, 0xd8, 0x3e, 0x8d, 0x91, 0x05, 0x3f, 0x91, 0x88, 0xf9, 0xbf,
  0x78, 0xe4, 0x94, 0x3e, 0x34, 0x87, 0xf0, 0x3e, 0xad, 0x5d, 0x4e, 0x3f,
  0x11, 0x48, 0xb2, 0x3f, 0x7d, 0x18, 0x98, 0xc0, 0x9d, 0x69, 0x2e, 0xbe,
  0xc6, 0x18, 0x68, 0xbd, 0x79, 0x32, 0x54, 0x3f, 0xaa, 0xae, 0x68, 0x3f,
  0x1b, 0xd6, 0x41, 0xc0, 0x62, 0xfc, 0xff, 0xff, 0x04, 0x00, 0x00, 0x00,
  0xa0, 0x00, 0x00, 0x00, 0x90, 0x00, 0x4d, 0x3d, 0x99, 0xd8, 0x02, 0x3f,
  0x96, 0x7c, 0xee, 0xbe, 0x20, 0x16, 0x0e, 0xbd, 0x6d, 0x5b, 0x23, 0xbe,
  0x9c, 0xc4, 0xd5, 0x3e, 0x7c, 0x93, 0xf6, 0xbe, 0x1c, 0x75, 0x65, 0x3e,
  0x56, 0xe6, 0x8c, 0xc0, 0x75, 0x59, 0x8a, 0xc0, 0x57, 0x8d, 0x03, 0xbf,
  0xe9, 0xa3, 0xcb, 0xbe, 0x28, 0x3f, 0xb3, 0x3f, 0xa8, 0x35, 0x23, 0xbe,
  0xec, 0x29, 0xf0, 0xbe, 0x37, 0xa4, 0xdb, 0xbe, 0x37, 0xfe, 0x86, 0x40,
  0x31, 0xd3, 0x27, 0xbe, 0xe0, 0x2d, 0x81, 0x3c, 0xa9, 0xd1, 0x88, 0xbe,
  0x01, 0x77, 0x35, 0xbf, 0x76, 0x7e, 0x18, 0x3f, 0x64, 0x07, 0xee, 0x3e,
  0x14, 0xb9, 0x15, 0x3f, 0x84, 0xd9, 0x0e, 0x41, 0xc9, 0xeb, 0x3b, 0x41,
  0xfc, 0x8e, 0xd4, 0xbe, 0xe0, 0x96, 0x30, 0xbd, 0x24, 0xad, 0x27, 0xbf,
  0xfc, 0x86, 0x1b, 0xbe, 0x7c, 0xa4, 0x01, 0x3e, 0xf8, 0xd2, 0xf7, 0xbd,
  0x99, 0x74, 0x5c, 0xc0, 0xe1, 0xd0, 0xbe, 0xbf, 0x9c, 0x10, 0x18, 0xbf,
  0x20, 0xb5, 0x22, 0xbe, 0x19, 0x66, 0x72, 0x40, 0x92, 0xa3, 0x0a, 0x3f,
  0x2c, 0x19, 0x09, 0x3f, 0xeb, 0xd3, 0x00, 0xbf, 0x0e, 0xfd, 0xff, 0xff,
  0x04, 0x00, 0x00, 0x00, 0xc0, 0x01, 0x00, 0x00, 0x1d, 0x38, 0x2c, 0xc0,
  0x3b, 0x7c, 0x2e, 0x40, 0xfc, 0x26, 0xf0, 0x3f, 0x72, 0xb9, 0xcb, 0xbe,
  0xf5, 0xa5, 0xda, 0xbe, 0x11, 0x2a, 0x05, 0x3f, 0x08, 0x7d, 0x6c, 0xbd,
  0x38, 0xcc, 0x54, 0xbd, 0xa1, 0x89, 0x02, 0xbf, 0x24, 0x35, 0x9e, 0xbe,
  0xec, 0x75, 0xbc, 0x3e, 0x11, 0x90, 0xe5, 0xbe, 0x8f, 0x65, 0xda, 0xbe,
  0x44, 0x26, 0x27, 0xbe, 0xa0, 0xa3, 0x07, 0xbf, 0x29, 0x76, 0xe7, 0x3f,
  0x34, 0x96, 0x95, 0xbf, 0x54, 0xcb, 0xea, 0x3e, 0x87, 0x4c, 0x01, 0x3f,
  0x10, 0x13, 0x9a, 0xbe, 0x52, 0xeb, 0x5b, 0xbe, 0xda, 0x4d, 0xba, 0x3e,
  0x9e, 0xf4, 0x7d, 0xbe, 0x78, 0x32, 0x58, 0x3e, 0x00, 0xdb, 0x19, 0xbb,
  0x62, 0x8a, 0xd1, 0x3e, 0x36, 0x80, 0x9a, 0x3e, 0x38, 0x5d, 0x5e, 0xbe,
  0x2e, 0x6d, 0xb9, 0xbe, 0xd0, 0xf3, 0x31, 0x3d, 0x79, 0x12, 0xf3, 0xbe,
  0xc8, 0x52, 0x9f, 0x3d, 0x56, 0x4d, 0xe9, 0xbe, 0x70, 0x34, 0xaa, 0xbd,
  0x1a, 0x80, 0x2a, 0xbe, 0x48, 0x84, 0xdd, 0xbe, 0x7c, 0x6c, 0xe5, 0x3e,
  0x62, 0x2d, 0xb1, 0x3e, 0xb4, 0x42, 0x81, 0xbe, 0x30, 0x52, 0xa1, 0x3d,
  0x26, 0x26, 0xae, 0xbe, 0x60, 0xdc, 0x4d, 0x3d, 0x9a, 0xd3, 0xbd, 0xbe,
  0xfa, 0x87, 0x35, 0xbe, 0xd0, 0x20, 0xd1, 0x3e, 0x34, 0xb1, 0x98, 0xbe,
  0xc0, 0xce, 0x7c, 0x3d, 0x10, 0x66, 0x1c, 0xbe, 0xf8, 0x60, 0x22, 0xbd,
  0x48, 0x18, 0x03, 0xbf, 0x54, 0x9d, 0xfb, 0xbd, 0x06, 0x85, 0x6c, 0xbe,
  0x20, 0xe4, 0x30, 0xbe, 0xf0, 0x38, 0xd6, 0x3d, 0xb8, 0x19, 0xe8, 0x3d,
  0xa8, 0xae, 0x5d, 0x3e, 0x56, 0x14, 0x7a, 0x40, 0x64, 0x90, 0x35, 0xbf,
  0x5b, 0xa2, 0x1c, 0xbf, 0x4c, 0x2a, 0x90, 0x3e, 0x46, 0xda, 0xd2, 0x3e,
  0x30, 0xff, 0xee, 0x3d, 0xf9, 0x09, 0xe0, 0xbe, 0x3c, 0x45, 0x07, 0x3e,
  0xe8, 0x98, 0xbc, 0x3d, 0x50, 0x49, 0xd5, 0x3e, 0x28, 0x35, 0x0a, 0xbd,
  0x30, 0xfd, 0xf2, 0x3d, 0x34, 0x6c, 0xf0, 0x3e, 0x1c, 0xe4, 0x74, 0x3e,
  0x5c, 0x18, 0x69, 0xbe, 0x13, 0xc0, 0xac, 0xbe, 0x60, 0xef, 0x16, 0x3d,
  0xbc, 0x67, 0xa6, 0xbe, 0xf8, 0x00, 0x70, 0xbe, 0xe1, 0x84, 0x03, 0x3f,
  0x88, 0xaf, 0x56, 0xbe, 0x90, 0x4c, 0xec, 0x3e, 0x44, 0x57, 0x37, 0xbe,
  0x2e, 0xca, 0x7e, 0xbe, 0x52, 0x32, 0x81, 0x3e, 0x00, 0x1b, 0x15, 0xbb,
  0xa6, 0xf2, 0xa6, 0x3e, 0x70, 0xa5, 0x79, 0x3d, 0x0e, 0x5f, 0xd1, 0xbe,
  0x1c, 0xf0, 0xa7, 0xbe, 0x9a, 0x64, 0xe6, 0x3e, 0xa0, 0x21, 0xf7, 0xbc,
  0x06, 0x11, 0xa4, 0x3e, 0x58, 0x41, 0xf5, 0xbe, 0xde, 0x3c, 0x00, 0xbf,
  0xac, 0x86, 0xc1, 0xbd, 0x65, 0x9b, 0xf7, 0xbe, 0xc8, 0x86, 0xda, 0x3e,
  0xa2, 0x15, 0x99, 0xbe, 0xfc, 0x65, 0x22, 0xbe, 0x30, 0x63, 0x3c, 0x3d,
  0xb4, 0x7f, 0x0a, 0xbe, 0xc9, 0xbe, 0xfe, 0xbe, 0xe5, 0x05, 0xc7, 0xbe,
  0x30, 0xfa, 0x03, 0xbf, 0x20, 0xb6, 0x49, 0x3d, 0xb8, 0x64, 0xc6, 0x3e,
  0x2c, 0x43, 0xc3, 0x3e, 0xcc, 0xc8, 0xa5, 0x3e, 0x10, 0x41, 0x9d, 0x3e,
  0x40, 0xa7, 0x5c, 0xbc, 0x50, 0xb7, 0x84, 0x3d, 0xb0, 0x05, 0xb4, 0xbd,
  0x1a, 0x61, 0xab, 0x3e, 0x7a, 0xf7, 0x07, 0xbe, 0xc4, 0x9c, 0x67, 0xbe,
  0xda, 0xfe, 0xff, 0xff, 0x04, 0x00, 0x00, 0x00, 0x20, 0x00, 0x00, 0x00,
  0xbd, 0xff, 0x88, 0x3e, 0xc2, 0x78, 0xd6, 0x3c, 0x00, 0x00, 0x00, 0x00,
  0x00, 0x00, 0x00, 0x00, 0x5d, 0xe5, 0x73, 0x3f, 0x00, 0x00, 0x00, 0x00,
  0x00, 0x00, 0x00, 0x00, 0x00, 0x00, 0x00, 0x00, 0x06, 0xff, 0xff, 0xff,
  0x04, 0x00, 0x00, 0x00, 0x14, 0x00, 0x00, 0x00, 0x28, 0x79, 0x59, 0xbb,
  0xb2, 0x50, 0x5c, 0x3e, 0x51, 0x64, 0x9b, 0x3e, 0x43, 0x3c, 0x47, 0x3f,
  0xb9, 0xa2, 0xd1, 0x3f, 0x26, 0xff, 0xff, 0xff, 0x04, 0x00, 0x00, 0x00,
  0x38, 0x00, 0x00, 0x00, 0xea, 0x84, 0xe2, 0x3d, 0x72, 0x9b, 0x95, 0xbf,
  0x09, 0xea, 0x5a, 0xbf, 0xe2, 0x5e, 0x16, 0xbf, 0x3b, 0x79, 0x39, 0xbf,
  0xb5, 0x80, 0xad, 0xbe, 0x44, 0x0c, 0x7f, 0xbf, 0x57, 0xa0, 0xee, 0xbf,
  0x85, 0x89, 0x87, 0xbf, 0x84, 0xdb, 0xcc, 0xbd, 0x6e, 0x7a, 0x57, 0xbf,
  0x65, 0xd0, 0x68, 0xbf, 0x9d, 0xd1, 0x12, 0xbf, 0x19, 0x75, 0x02, 0xbf,
  0x14, 0xfa, 0xff, 0xff, 0x18, 0xfa, 0xff, 0xff, 0x0f, 0x00, 0x00, 0x00,
  0x4d, 0x4c, 0x49, 0x52, 0x20, 0x43, 0x6f, 0x6e, 0x76, 0x65, 0x72, 0x74,
  0x65, 0x64, 0x2e, 0x00, 0x01, 0x00, 0x00, 0x00, 0x14, 0x00, 0x00, 0x00,
  0x00, 0x00, 0x0e, 0x00, 0x18, 0x00, 0x14, 0x00, 0x10, 0x00, 0x0c, 0x00,
  0x08, 0x00, 0x04, 0x00, 0x0e, 0x00, 0x00, 0x00, 0x14, 0x00, 0x00, 0x00,
  0x1c, 0x00, 0x00, 0x00, 0x24, 0x01, 0x00, 0x00, 0x28, 0x01, 0x00, 0x00,
  0x2c, 0x01, 0x00, 0x00, 0x04, 0x00, 0x00, 0x00, 0x6d, 0x61, 0x69, 0x6e,
  0x00, 0x00, 0x00, 0x00, 0x04, 0x00, 0x00, 0x00, 0xcc, 0x00, 0x00, 0x00,
  0x84, 0x00, 0x00, 0x00, 0x50, 0x00, 0x00, 0x00, 0x14, 0x00, 0x00, 0x00,
  0x00, 0x00, 0x0e, 0x00, 0x1a, 0x00, 0x14, 0x00, 0x10, 0x00, 0x0c, 0x00,
  0x0b, 0x00, 0x04, 0x00, 0x0e, 0x00, 0x00, 0x00, 0x1c, 0x00, 0x00, 0x00,
  0x00, 0x00, 0x00, 0x09, 0x1c, 0x00, 0x00, 0x00, 0x20, 0x00, 0x00, 0x00,
  0x01, 0x00, 0x00, 0x00, 0x00, 0x00, 0x06, 0x00, 0x08, 0x00, 0x04, 0x00,
  0x06, 0x00, 0x00, 0x00, 0x00, 0x00, 0x80, 0x3f, 0x01, 0x00, 0x00, 0x00,
  0x0a, 0x00, 0x00, 0x00, 0x01, 0x00, 0x00, 0x00, 0x09, 0x00, 0x00, 0x00,
  0x9a, 0xff, 0xff, 0xff, 0x10, 0x00, 0x00, 0x00, 0x00, 0x00, 0x00, 0x08,
  0x0c, 0x00, 0x00, 0x00, 0x10, 0x00, 0x00, 0x00, 0xdc, 0xfa, 0xff, 0xff,
  0x01, 0x00, 0x00, 0x00, 0x09, 0x00, 0x00, 0x00, 0x03, 0x00, 0x00, 0x00,
  0x08, 0x00, 0x00, 0x00, 0x06, 0x00, 0x00, 0x00, 0x01, 0x00, 0x00, 0x00,
  0xca, 0xff, 0xff, 0xff, 0x10, 0x00, 0x00, 0x00, 0x00, 0x00, 0x00, 0x08,
  0x10, 0x00, 0x00, 0x00, 0x14, 0x00, 0x00, 0x00, 0xba, 0xff, 0xff, 0xff,
  0x00, 0x00, 0x00, 0x01, 0x01, 0x00, 0x00, 0x00, 0x08, 0x00, 0x00, 0x00,
  0x03, 0x00, 0x00, 0x00, 0x07, 0x00, 0x00, 0x00, 0x05, 0x00, 0x00, 0x00,
  0x02, 0x00, 0x00, 0x00, 0x00, 0x00, 0x0e, 0x00, 0x16, 0x00, 0x00, 0x00,
  0x10, 0x00, 0x0c, 0x00, 0x0b, 0x00, 0x04, 0x00, 0x0e, 0x00, 0x00, 0x00,
  0x18, 0x00, 0x00, 0x00, 0x00, 0x00, 0x00, 0x08, 0x18, 0x00, 0x00, 0x00,
  0x1c, 0x00, 0x00, 0x00, 0x00, 0x00, 0x06, 0x00, 0x08, 0x00, 0x07, 0x00,
  0x06, 0x00, 0x00, 0x00, 0x00, 0x00, 0x00, 0x01, 0x01, 0x00, 0x00, 0x00,
  0x07, 0x00, 0x00, 0x00, 0x03, 0x00, 0x00, 0x00, 0x00, 0x00, 0x00, 0x00,
  0x04, 0x00, 0x00, 0x00, 0x03, 0x00, 0x00, 0x00, 0x01, 0x00, 0x00, 0x00,
  0x0a, 0x00, 0x00, 0x00, 0x01, 0x00, 0x00, 0x00, 0x00, 0x00, 0x00, 0x00,
  0x0b, 0x00, 0x00, 0x00, 0x4c, 0x04, 0x00, 0x00, 0xd8, 0x03, 0x00, 0x00,
  0x64, 0x03, 0x00, 0x00, 0x08, 0x03, 0x00, 0x00, 0xb8, 0x02, 0x00, 0x00,
  0x68, 0x02, 0x00, 0x00, 0x18, 0x02, 0x00, 0x00, 0x7c, 0x01, 0x00, 0x00,
  0xe0, 0x00, 0x00, 0x00, 0x60, 0x00, 0x00, 0x00, 0x04, 0x00, 0x00, 0x00,
  0xf6, 0xfb, 0xff, 0xff, 0x00, 0x00, 0x00, 0x01, 0x14, 0x00, 0x00, 0x00,
  0x1c, 0x00, 0x00, 0x00, 0x1c, 0x00, 0x00, 0x00, 0x0b, 0x00, 0x00, 0x00,
  0x34, 0x00, 0x00, 0x00, 0x02, 0x00, 0x00, 0x00, 0xff, 0xff, 0xff, 0xff,
  0x0e, 0x00, 0x00, 0x00, 0xe0, 0xfb, 0xff, 0xff, 0x19, 0x00, 0x00, 0x00,
  0x53, 0x74, 0x61, 0x74, 0x65, 0x66, 0x75, 0x6c, 0x50, 0x61, 0x72, 0x74,
  0x69, 0x74, 0x69, 0x6f, 0x6e, 0x65, 0x64, 0x43, 0x61, 0x6c, 0x6c, 0x3a,
  0x30, 0x00, 0x00, 0x00, 0x02, 0x00, 0x00, 0x00, 0x01, 0x00, 0x00, 0x00,
  0x0e, 0x00, 0x00, 0x00, 0x4e, 0xfc, 0xff, 0xff, 0x00, 0x00, 0x00, 0x01,
  0x14, 0x00, 0x00, 0x00, 0x1c, 0x00, 0x00, 0x00, 0x1c, 0x00, 0x00, 0x00,
  0x0a, 0x00, 0x00, 0x00, 0x58, 0x00, 0x00, 0x00, 0x02, 0x00, 0x00, 0x00,
  0xff, 0xff, 0xff, 0xff, 0x0e, 0x00, 0x00, 0x00, 0x38, 0xfc, 0xff, 0xff,
  0x3c, 0x00, 0x00, 0x00, 0x73, 0x65, 0x71, 0x75, 0x65, 0x6e, 0x74, 0x69,
  0x61, 0x6c, 0x5f, 0x31, 0x30, 0x2f, 0x64, 0x65, 0x6e, 0x73, 0x65, 0x5f,
  0x33, 0x32, 0x2f, 0x4d, 0x61, 0x74, 0x4d, 0x75, 0x6c, 0x3b, 0x73, 0x65,
  0x71, 0x75, 0x65, 0x6e, 0x74, 0x69, 0x61, 0x6c, 0x5f, 0x31, 0x30, 0x2f,
  0x64, 0x65, 0x6e, 0x73, 0x65, 0x5f, 0x33, 0x32, 0x2f, 0x42, 0x69, 0x61,
  0x73, 0x41, 0x64, 0x64, 0x00, 0x00, 0x00, 0x00, 0x02, 0x00, 0x00, 0x00,
  0x01, 0x00, 0x00, 0x00, 0x0e, 0x00, 0x00, 0x00, 0xca, 0xfc, 0xff, 0xff,
  0x00, 0x00, 0x00, 0x01, 0x14, 0x00, 0x00, 0x00, 0x1c, 0x00, 0x00, 0x00,
  0x1c, 0x00, 0x00, 0x00, 0x09, 0x00, 0x00, 0x00, 0x74, 0x00, 0x00, 0x00,
  0x02, 0x00, 0x00, 0x00, 0xff, 0xff, 0xff, 0xff, 0x05, 0x00, 0x00, 0x00,
  0xb4, 0xfc, 0xff, 0xff, 0x58, 0x00, 0x00, 0x00, 0x73, 0x65, 0x71, 0x75,
  0x65, 0x6e, 0x74, 0x69, 0x61, 0x6c, 0x5f, 0x31, 0x30, 0x2f, 0x64, 0x65,
  0x6e, 0x73, 0x65, 0x5f, 0x33, 0x31, 0x2f, 0x4d, 0x61, 0x74, 0x4d, 0x75,
  0x6c, 0x3b, 0x73, 0x65, 0x71, 0x75, 0x65, 0x6e, 0x74, 0x69, 0x61, 0x6c,
  0x5f, 0x31, 0x30, 0x2f, 0x64, 0x65, 0x6e, 0x73, 0x65, 0x5f, 0x33, 0x31,
  0x2f, 0x52, 0x65, 0x6c, 0x75, 0x3b, 0x73, 0x65, 0x71, 0x75, 0x65, 0x6e,
  0x74, 0x69, 0x61, 0x6c, 0x5f, 0x31, 0x30, 0x2f, 0x64, 0x65, 0x6e, 0x73,
  0x65, 0x5f, 0x33, 0x31, 0x2f, 0x42, 0x69, 0x61, 0x73, 0x41, 0x64, 0x64,
  0x00, 0x00, 0x00, 0x00, 0x02, 0x00, 0x00, 0x00, 0x01, 0x00, 0x00, 0x00,
  0x05, 0x00, 0x00, 0x00, 0x62, 0xfd, 0xff, 0xff, 0x00, 0x00, 0x00, 0x01,
  0x14, 0x00, 0x00, 0x00, 0x1c, 0x00, 0x00, 0x00, 0x1c, 0x00, 0x00, 0x00,
  0x08, 0x00, 0x00, 0x00, 0x74, 0x00, 0x00, 0x00, 0x02, 0x00, 0x00, 0x00,
  0xff, 0xff, 0xff, 0xff, 0x08, 0x00, 0x00, 0x00, 0x4c, 0xfd, 0xff, 0xff,
  0x58, 0x00, 0x00, 0x00, 0x73, 0x65, 0x71, 0x75, 0x65, 0x6e, 0x74, 0x69,
  0x61, 0x6c, 0x5f, 0x31, 0x30, 0x2f, 0x64, 0x65, 0x6e, 0x73, 0x65, 0x5f,
  0x33, 0x30, 0x2f, 0x4d, 0x61, 0x74, 0x4d, 0x75, 0x6c, 0x3b, 0x73, 0x65,
  0x71, 0x75, 0x65, 0x6e, 0x74, 0x69, 0x61, 0x6c, 0x5f, 0x31, 0x30, 0x2f,
  0x64, 0x65, 0x6e, 0x73, 0x65, 0x5f, 0x33, 0x30, 0x2f, 0x52, 0x65, 0x6c,
  0x75, 0x3b, 0x73, 0x65, 0x71, 0x75, 0x65, 0x6e, 0x74, 0x69, 0x61, 0x6c,
  0x5f, 0x31, 0x30, 0x2f, 0x64, 0x65, 0x6e, 0x73, 0x65, 0x5f, 0x33, 0x30,
  0x2f, 0x42, 0x69, 0x61, 0x73, 0x41, 0x64, 0x64, 0x00, 0x00, 0x00, 0x00,
  0x02, 0x00, 0x00, 0x00, 0x01, 0x00, 0x00, 0x00, 0x08, 0x00, 0x00, 0x00,
  0x6a, 0xfe, 0xff, 0xff, 0x00, 0x00, 0x00, 0x01, 0x10, 0x00, 0x00, 0x00,
  0x10, 0x00, 0x00, 0x00, 0x07, 0x00, 0x00, 0x00, 0x2c, 0x00, 0x00, 0x00,
  0xd4, 0xfd, 0xff, 0xff, 0x1d, 0x00, 0x00, 0x00, 0x73, 0x65, 0x71, 0x75,
  0x65, 0x6e, 0x74, 0x69, 0x61, 0x6c, 0x5f, 0x31, 0x30, 0x2f, 0x64, 0x65,
  0x6e, 0x73, 0x65, 0x5f, 0x33, 0x32, 0x2f, 0x4d, 0x61, 0x74, 0x4d, 0x75,
  0x6c, 0x00, 0x00, 0x00, 0x02, 0x00, 0x00, 0x00, 0x0e, 0x00, 0x00, 0x00,
  0x05, 0x00, 0x00, 0x00, 0xb6, 0xfe, 0xff, 0xff, 0x00, 0x00, 0x00, 0x01,
  0x10, 0x00, 0x00, 0x00, 0x10, 0x00, 0x00, 0x00, 0x06, 0x00, 0x00, 0x00,
  0x2c, 0x00, 0x00, 0x00, 0x20, 0xfe, 0xff, 0xff, 0x1d, 0x00, 0x00, 0x00,
  0x73, 0x65, 0x71, 0x75, 0x65, 0x6e, 0x74, 0x69, 0x61, 0x6c, 0x5f, 0x31,
  0x30, 0x2f, 0x64, 0x65, 0x6e, 0x73, 0x65, 0x5f, 0x33, 0x31, 0x2f, 0x4d,
  0x61, 0x74, 0x4d, 0x75, 0x6c, 0x00, 0x00, 0x00, 0x02, 0x00, 0x00, 0x00,
  0x05, 0x00, 0x00, 0x00, 0x08, 0x00, 0x00, 0x00, 0x02, 0xff, 0xff, 0xff,
  0x00, 0x00, 0x00, 0x01, 0x10, 0x00, 0x00, 0x00, 0x10, 0x00, 0x00, 0x00,
  0x05, 0x00, 0x00, 0x00, 0x2c, 0x00, 0x00, 0x00, 0x6c, 0xfe, 0xff, 0xff,
  0x1d, 0x00, 0x00, 0x00, 0x73, 0x65, 0x71, 0x75, 0x65, 0x6e, 0x74, 0x69,
  0x61, 0x6c, 0x5f, 0x31, 0x30, 0x2f, 0x64, 0x65, 0x6e, 0x73, 0x65, 0x5f,
  0x33, 0x30, 0x2f, 0x4d, 0x61, 0x74, 0x4d, 0x75, 0x6c, 0x00, 0x00, 0x00,
  0x02, 0x00, 0x00, 0x00, 0x08, 0x00, 0x00, 0x00, 0x0e, 0x00, 0x00, 0x00,
  0x4e, 0xff, 0xff, 0xff, 0x00, 0x00, 0x00, 0x01, 0x10, 0x00, 0x00, 0x00,
  0x10, 0x00, 0x00, 0x00, 0x04, 0x00, 0x00, 0x00, 0x3c, 0x00, 0x00, 0x00,
  0xb8, 0xfe, 0xff, 0xff, 0x2d, 0x00, 0x00, 0x00, 0x73, 0x65, 0x71, 0x75,
  0x65, 0x6e, 0x74, 0x69, 0x61, 0x6c, 0x5f, 0x31, 0x30, 0x2f, 0x64, 0x65,
  0x6e, 0x73, 0x65, 0x5f, 0x33, 0x30, 0x2f, 0x42, 0x69, 0x61, 0x73, 0x41,
  0x64, 0x64, 0x2f, 0x52, 0x65, 0x61, 0x64, 0x56, 0x61, 0x72, 0x69, 0x61,
  0x62, 0x6c, 0x65, 0x4f, 0x70, 0x00, 0x00, 0x00, 0x01, 0x00, 0x00, 0x00,
  0x08, 0x00, 0x00, 0x00, 0xa6, 0xff, 0xff, 0xff, 0x00, 0x00, 0x00, 0x01,
  0x10, 0x00, 0x00, 0x00, 0x10, 0x00, 0x00, 0x00, 0x03, 0x00, 0x00, 0x00,
  0x3c, 0x00, 0x00, 0x00, 0x10, 0xff, 0xff, 0xff, 0x2d, 0x00, 0x00, 0x00,
  0x73, 0x65, 0x71, 0x75, 0x65, 0x6e, 0x74, 0x69, 0x61, 0x6c, 0x5f, 0x31,
  0x30, 0x2f, 0x64, 0x65, 0x6e, 0x73, 0x65, 0x5f, 0x33, 0x31, 0x2f, 0x42,
  0x69, 0x61, 0x73, 0x41, 0x64, 0x64, 0x2f, 0x52, 0x65, 0x61, 0x64, 0x56,
  0x61, 0x72, 0x69, 0x61, 0x62, 0x6c, 0x65, 0x4f, 0x70, 0x00, 0x00, 0x00,
  0x01, 0x00, 0x00, 0x00, 0x05, 0x00, 0x00, 0x00, 0x00, 0x00, 0x16, 0x00,
  0x18, 0x00, 0x14, 0x00, 0x00, 0x00, 0x10, 0x00, 0x0c, 0x00, 0x08, 0x00,
  0x00, 0x00, 0x00, 0x00, 0x00, 0x00, 0x07, 0x00, 0x16, 0x00, 0x00, 0x00,
  0x00, 0x00, 0x00, 0x01, 0x10, 0x00, 0x00, 0x00, 0x10, 0x00, 0x00, 0x00,
  0x02, 0x00, 0x00, 0x00, 0x3c, 0x00, 0x00, 0x00, 0x80, 0xff, 0xff, 0xff,
  0x2d, 0x00, 0x00, 0x00, 0x73, 0x65, 0x71, 0x75, 0x65, 0x6e, 0x74, 0x69,
  0x61, 0x6c, 0x5f, 0x31, 0x30, 0x2f, 0x64, 0x65, 0x6e, 0x73, 0x65, 0x5f,
  0x33, 0x32, 0x2f, 0x42, 0x69, 0x61, 0x73, 0x41, 0x64, 0x64, 0x2f, 0x52,
  0x65, 0x61, 0x64, 0x56, 0x61, 0x72, 0x69, 0x61, 0x62, 0x6c, 0x65, 0x4f,
  0x70, 0x00, 0x00, 0x00, 0x01, 0x00, 0x00, 0x00, 0x0e, 0x00, 0x00, 0x00,
  0x00, 0x00, 0x16, 0x00, 0x1c, 0x00, 0x18, 0x00, 0x00, 0x00, 0x14, 0x00,
  0x10, 0x00, 0x0c, 0x00, 0x00, 0x00, 0x00, 0x00, 0x08, 0x00, 0x07, 0x00,
  0x16, 0x00, 0x00, 0x00, 0x00, 0x00, 0x00, 0x01, 0x14, 0x00, 0x00, 0x00,
  0x20, 0x00, 0x00, 0x00, 0x20, 0x00, 0x00, 0x00, 0x01, 0x00, 0x00, 0x00,
  0x40, 0x00, 0x00, 0x00, 0x02, 0x00, 0x00, 0x00, 0xff, 0xff, 0xff, 0xff,
  0x0e, 0x00, 0x00, 0x00, 0x04, 0x00, 0x04, 0x00, 0x04, 0x00, 0x00, 0x00,
  0x20, 0x00, 0x00, 0x00, 0x73, 0x65, 0x72, 0x76, 0x69, 0x6e, 0x67, 0x5f,
  0x64, 0x65, 0x66, 0x61, 0x75, 0x6c, 0x74, 0x5f, 0x64, 0x65, 0x6e, 0x73,
  0x65, 0x5f, 0x33, 0x30, 0x5f, 0x69, 0x6e, 0x70, 0x75, 0x74, 0x3a, 0x30,
  0x00, 0x00, 0x00, 0x00, 0x02, 0x00, 0x00, 0x00, 0x01, 0x00, 0x00, 0x00,
  0x0e, 0x00, 0x00, 0x00, 0x02, 0x00, 0x00, 0x00, 0x20, 0x00, 0x00, 0x00,
  0x04, 0x00, 0x00, 0x00, 0xf4, 0xff, 0xff, 0xff, 0x19, 0x00, 0x00, 0x00,
  0x00, 0x00, 0x00, 0x19, 0x0c, 0x00, 0x0c, 0x00, 0x0b, 0x00, 0x00, 0x00,
  0x00, 0x00, 0x04, 0x00, 0x0c, 0x00, 0x00, 0x00, 0x09, 0x00, 0x00, 0x00,
  0x00, 0x00, 0x00, 0x09
};
